/**
  ******************************************************************************
  * @file    network_data.c
  * @author  AST Embedded Analytics Research Platform
  * @date    Wed Dec  8 21:24:29 2021
  * @brief   AI Tool Automatic Code Generator for Embedded NN computing
  ******************************************************************************
  * @attention
  *
  * Copyright (c) 2021 STMicroelectronics.
  * All rights reserved.
  *
  * This software component is licensed by ST under Ultimate Liberty license
  * SLA0044, the "License"; You may not use this file except in compliance with
  * the License. You may obtain a copy of the License at:
  *                             www.st.com/SLA0044
  *
  ******************************************************************************
  */
#include "network_data.h"
#include "ai_platform_interface.h"


AI_ALIGNED(32)
const ai_u64 s_network_weights_array_u64[ 796 ] = {
  0x3cb8c328bdc5423cU, 0x3e2e7c163dedd072U, 0x3dbe47f73de5654cU, 0x3dd5796dbedbb21bU,
  0xbda98b46be9109d2U, 0xbe9db4573db95258U, 0xb8a6f7583e392f43U, 0xbd12fa473d480a33U,
  0xbe03c2d53bac8710U, 0x3e26927abdfdfe20U, 0xbdab5e573e3420a4U, 0x3e7a35583de5724aU,
  0xbe8692dc3e19fc25U, 0xbe5b802c3e030b8eU, 0xbdb02f5abdb9ea42U, 0x3da6ed2d3e76025aU,
  0x3c7e9455bda750d1U, 0x3da39a3abe681f30U, 0xbe687b23be312d27U, 0x3e40f4d43de7792dU,
  0xbad7865abe9d911aU, 0xbea0e5533e3d726dU, 0xbe0bf2bf3e79d4beU, 0xbd5d37de3e6e1e2eU,
  0xbd6704a2be9d7463U, 0x3d583680be6cd1a4U, 0x3db88231bdd71ec8U, 0x3d974256bde1912bU,
  0xbcd0ed123e2e54a9U, 0x3e451a573e44cec9U, 0xbe0861493e57ed7aU, 0xbcecc9e03e9f247bU,
  0x3e4a81823e4bc942U, 0x3e1825663e0e4c6aU, 0x3e82cefdbe9f863dU, 0xbd8a74e8be9f20c9U,
  0x3e38c0d8bd574df0U, 0x3e26d8aabdbe695eU, 0xbd2ef9c0bb67aa80U, 0xbc897770be827355U,
  0x3e53d36e3d1e00b0U, 0x3e958029bc216a20U, 0xbe7cc26d3e5f0f72U, 0xbe7a7ff2bdcc67deU,
  0x3d0ad7883e9959d9U, 0xbe4113823e9dda99U, 0x3e0e7604be9bd311U, 0xbe89aaf639852000U,
  0xbcb59d603a860800U, 0x3e874317be914914U, 0x3e133c6ebe0ee70cU, 0xbe889914bd947a6cU,
  0xbb5c89003de8be18U, 0x3e3a05e8be5c103cU, 0xbe0ff84e3e8501f9U, 0xbe9e72243c022060U,
  0x3cbefa10be3b9a01U, 0xbe4fbfcc3e93699dU, 0x3e6dfd423e96e4fbU, 0xbe6b948cbe6e5946U,
  0xbdf31eda3e962619U, 0xbea21fcc3dd8634aU, 0xbe39c7acbdf5ecb2U, 0xbd37de383e8b4731U,
  0xbc4c9ca8be8b74f8U, 0x3e8aee6abdaaca2bU, 0x3cb027cf3bf7409eU, 0xbe5d022f3e792d3bU,
  0x3d27ed6fbdc0ca83U, 0x3e6b6fe3bcb77526U, 0xbeae194dbe300aabU, 0xbde3d4f93e85ac52U,
  0xbe6381d3be46213aU, 0xbe10bb623bb93704U, 0x3da43fbe3d8dbbfeU, 0xbe7316e63daf63f4U,
  0xbde7642e3e445532U, 0x3e634fd2be5f9aa9U, 0xbdc9f4503e7d0d72U, 0xbdc4c5c8bafabd00U,
  0xbe0d08003d2b7350U, 0xbc521c80be406405U, 0xbdadaa263c94da10U, 0x3e0ee0bebd16a148U,
  0x3e9c9cabbc4e3900U, 0x3e4f9c3abe533fb1U, 0x3d88d8f0be8bcb96U, 0x3e0bc3183cb49db0U,
  0x3da5acc0be5a3a70U, 0x3de00b243e4284d6U, 0xbe3ea211bddb3792U, 0xbe9989c33ca5d836U,
  0x3e2ddd20be71c65aU, 0x3d604ec83ce4f3f2U, 0x3e84365cbd8bdea0U, 0xbe024ebabd6be3b5U,
  0x3e28595e3e837dc9U, 0xbe98233cbe809138U, 0xbe81c1fa3c1849bdU, 0xbe6236d03e882f09U,
  0x3d2e985fbe897d28U, 0x3db4fe0dbdf694deU, 0x3c995eae3e13ef77U, 0x3e7532153e72f2eaU,
  0x3e8337b13e4cb2d9U, 0x3e8ac3c03e5d9316U, 0xbe15bf6d3e39d79dU, 0xbe677a763e80ff97U,
  0x3e8ded66be16dd93U, 0x3e8f89413e3eebbbU, 0x3e6eb40fbe76937aU, 0x3e123e67be7a63dbU,
  0xbe162137be44e9f6U, 0x3e49af023e7d78fdU, 0xbe6083ddbe99c8f5U, 0x3d55e62a3c4f4772U,
  0xbea9b52dbe3ed98bU, 0xbccb82b53e925ddcU, 0xbddce0d8be3a448aU, 0xbe92c5673d26d1a1U,
  0xbe197a3b3e9d8c11U, 0xbdd8ddbcbde00d3cU, 0x3db0a1e0be3cfc10U, 0x3e1613fe3e27d074U,
  0x3e302b3cbe50254aU, 0xbe1812903d262d68U, 0xbe008710be67ee97U, 0xbe63c4cebc3ad480U,
  0x3e64e62abe78764aU, 0xbd4204e03db56e30U, 0x3e6d5faabe3e292bU, 0x3e4966e63e9d4a7bU,
  0x3dc382f43da05560U, 0xbdeafdb6bd52f980U, 0xbe94d83bbdf1e62cU, 0xbc8b8db03b278180U,
  0x3d9e00e4bdf3ce3aU, 0xbdeb35ae3ded6b7cU, 0xbe9abd75be75d899U, 0x3e794f2a3ddaf8d4U,
  0xbb028880be372bfeU, 0xbe944acabe65afa0U, 0x3e62c64ebe44eb1dU, 0x3d05dc30be904f6dU,
  0xbe58c2943e4c07d6U, 0x3dbd7a24be5a5e5aU, 0x3e6b0f0a3d610c70U, 0xbdb48902be249a61U,
  0xbd3be438bda0003cU, 0xbda4b48cbe97ca76U, 0xbe3360e5be24adddU, 0x3d1b94d0be960593U,
  0x3e99aea3be11cc34U, 0x3dbc5960be7b6768U, 0xbe1d64ad3e96519bU, 0xbe87d3703e51bb76U,
  0xbe7c7e84be5baee5U, 0x3e78b9f6be99794eU, 0x3e72d6363e5f518aU, 0x3e8a80ddbddd1d5cU,
  0x3dc6f3743be7aa80U, 0x3e853091be80246cU, 0x3db332d0be9f6bcbU, 0xbdd896123cb921b0U,
  0xbd72b6903e9abae1U, 0xbe567dbb3e734002U, 0x3e15ecf63e878b8bU, 0xbe0c7aa0bd9be952U,
  0x3d8bc4c83d646808U, 0xbdff3abebdb22368U, 0xbe3bf3cbbdeda20aU, 0x3dcf9b10bdfa7564U,
  0x3e9832efbe4bc4adU, 0x3d0a5af0bd082a18U, 0xbe0008383e0661fcU, 0x3d04a9e83d880f8cU,
  0x3e6f28863c9cf850U, 0x3e7b9efa3df3a4b8U, 0x3d48e000bdd0fb7eU, 0x3ddffda8be812b02U,
  0x3e29b888bd918da2U, 0xbe1e03bdbe12d039U, 0x3cdb84d0bccf8b00U, 0x3e0df99abd82e610U,
  0xbe8eb4253d7aeee8U, 0xbe8ce3633d12ecc0U, 0xbe89fbe03e851a11U, 0x3e1d6bdabdf4763aU,
  0x3e6ef4763e71471aU, 0x3c84adb03e772cfaU, 0xbe639480be63a742U, 0xbe2024ea3e423396U,
  0x3d69b7503c7004a0U, 0x3b295080be7d581aU, 0x3e0165a6be04235cU, 0x3d5b5e493b3fe065U,
  0xbe4beffabddd0f16U, 0xbebdc952be95c4a6U, 0xbeb379673e9ae1abU, 0xbe26e7af3db9e0e0U,
  0x3df1c11fbe3c05e3U, 0x3e6b86073e66a4d4U, 0xbeabb392bea287ebU, 0xbd2b63463dd29f1eU,
  0xbeb0f62dbebfbde4U, 0xbdcb32a83e529daaU, 0x3e7028a33e2835a8U, 0xbe8fcec63e89a07cU,
  0xbe3bb006be623d8cU, 0xbec863503c87cce8U, 0x3d12f7c6bbfd02d9U, 0xbdaa3037be7cd3f3U,
  0x3e6a9d4dbe0da342U, 0xbe3e4f5b3e6e0982U, 0xbd2e53423de10ddcU, 0xbcdcd3ab3e5ef541U,
  0xbe46ba3c3e595cbfU, 0xbe0204b1be5b918dU, 0xbc673c95bdb3c740U, 0xbe56a96c3df8dca5U,
  0xbe0ffc1fbc4fec1cU, 0x3e3a1fb63e56e80cU, 0x3e811f29be05b673U, 0x3d88cbcebea2d1d1U,
  0xbe098bf43e5382c1U, 0xbe497f183e925521U, 0x3dae82b0be62d140U, 0xbd2663d0be2cc51eU,
  0xbd01b6e8bc87ace0U, 0x3e1487a43e84fdadU, 0xbe70975ebe0964d4U, 0xbe86e0d53e3e21eeU,
  0x3e623f46bd606758U, 0x3d80a7d43c3583c0U, 0x3d3cf158bde3c342U, 0xbe624c503d5ca828U,
  0x3ccf2b10bde86a22U, 0x3e33a4d83dffd3e0U, 0x3c9407a03e7b05deU, 0xbe449180be187308U,
  0xbe1cd3cb3e365e03U, 0xbe707f36bd7204a7U, 0xbe70733bbe718f9bU, 0x3e53a95abdc2c1bcU,
  0xbe28d25c3e1c309aU, 0xbe72f9cdbe4894f2U, 0xbc99b6953e94f4daU, 0x3d5bf9ba3d4efc12U,
  0xbe7829603d3b72edU, 0xbc8df911be6fbc9dU, 0x3e0e5720bc9f71b4U, 0x3e6149b33d1cf22aU,
  0xbe8bbecf3d9adf3aU, 0x3d1089ec3ea2b22aU, 0x3e5a5e70be015dfbU, 0x3d9ffd1c3e11b02eU,
  0xbe87f9c5bb791900U, 0x3d9fc3c03dc50f44U, 0xbdfece283e161c3cU, 0xbe9b5315bd114a10U,
  0xbe429381be5f04caU, 0x3e7464dabe71f976U, 0xbe7294373c9df520U, 0x3e6d68f63b166f80U,
  0x3e8bf317bdc03be0U, 0xbe15575dbe80f0b7U, 0x3e09eeec3e0de14eU, 0x3e6bf4f2bddc602eU,
  0xbdd49556be9f94f8U, 0xbe1a9f1e3e18fe9cU, 0xbd995d423d97c1e4U, 0x3e457a263e2d3928U,
  0x3e98a9833e3d7172U, 0x3ba72e40bd033920U, 0x3d4920203e662aaeU, 0xbc86e410be84f05dU,
  0xbd9a51dc3e382cc0U, 0xbe84e8dabe5ad142U, 0xbdefd570be55094bU, 0x3e9496eb3dd6cfa8U,
  0xbe3fa37abd091140U, 0xbd9007b83e801d67U, 0x3c9fb0b0bda5c1b2U, 0xbe6996c0bd9ffdb4U,
  0x3d3659383e98707bU, 0xbe51adfc3cf2fdd0U, 0x3c9b9ff03e03cd1cU, 0x3ea16507be9ae7c8U,
  0xbdb4f21c3dd13278U, 0xbe6b1eeebe13ea6bU, 0xbe0fa2ba3d6879c0U, 0xbe9a644a3dc122b8U,
  0x3daacee03d1c15e8U, 0xbd5fa468bdab094aU, 0xbe28996fbe91ec37U, 0x3e5bbb2a3e847c45U,
  0x3e71b952bc1493e0U, 0x3dd1ce94be8c2cadU, 0x3d5911c0bd3f4670U, 0xbe7ca3bcbe729868U,
  0x3d48d195be1aafd0U, 0xbd8a846bbcf6a196U, 0xbe4c996f3e26f8e1U, 0x3da428a2be86d56fU,
  0xbe52dc5cbe8b175aU, 0xbe78091d3e2e2d34U, 0xbd64c52f3dc6f958U, 0xbe3ab3443dcb73a0U,
  0x3d1343883e8706cdU, 0xbe8ae435be62575dU, 0xbec45593be734c75U, 0xbe65cd9abdff1f66U,
  0x3de1e4543915d6d5U, 0xbd8d13d33e2a7e25U, 0x3e932533be717d19U, 0x3e793282be7562d8U,
  0xbe87fc03be2e92d4U, 0x3e9bf185be4c099dU, 0xbe8a14883e9e26dbU, 0xbe315f803e24fb52U,
  0xbe73d818bc979930U, 0xbdc3efe4bbd20340U, 0x3deaee74bdf75e6eU, 0xbc85aa10bdf33476U,
  0xbe7f797e3e1df5c8U, 0xbe85fa96be131c2dU, 0x3e3f9df23c0224c0U, 0xbe820e1abdd6be38U,
  0xbe52ca7dbdf19b30U, 0xbe39601fbda414eeU, 0x3e79b64a3e6d6ceeU, 0x3e51e47ebe972ed2U,
  0xbcda22303e9136a9U, 0x3e44cc62be1de6a5U, 0xbe63910a3e45ee66U, 0xbe4ee2013d8200a4U,
  0x3d42abc03e0a0538U, 0xbe63e435bdf4709cU, 0xbe801539bdbfdf9eU, 0x3e4c3cfebe91634cU,
  0x3e90c257be34f305U, 0x3e2f66aa3cd5e300U, 0x3c057640be13e834U, 0x3b0a7d00be80940cU,
  0x3d83c7d8be8374c5U, 0xbd9624273a8182c9U, 0x3db4505bbe34af5eU, 0xbe8ac0d0be0c396dU,
  0xbe810efa3d6d6cabU, 0xbdab4ef43dc3fb8eU, 0x3e071e3c3e2dfca4U, 0xbe4e3ed63e6eda8cU,
  0xbe8eda7cbde593f8U, 0xbdc2e16dbd358c77U, 0x3c5084a5be8222e6U, 0xbe5db00c3cd69448U,
  0x3e11a09cbea6f648U, 0xbe20c5983e8dbf17U, 0xbe4b28503d6ac448U, 0xbe73d5753e34fc2aU,
  0xbe00fdf1bc8c4742U, 0xbe1b09d63d6366fdU, 0xbe6a9daf3dee8742U, 0xbe3401ff3da18e55U,
  0x3e71b1d33d92bf32U, 0xbe9a0f7cbe2c4f86U, 0x3e82092fbdc62d43U, 0x3e20c1513e6a8e48U,
  0x3e8582f1be8da8d4U, 0x3e3170723e96c0e6U, 0x3d4af7adbea5cc63U, 0x3e9385ff3e84743cU,
  0x3d4bf40abe84103aU, 0x3d74dc23bd063262U, 0x3d555f3cbe1cf873U, 0xbd7dcd583dacaee8U,
  0x3ddb94b8be9a794dU, 0x3e9875a93e757a12U, 0x3ea130733e9caeb1U, 0x3e469ee63e335de4U,
  0xbe15bbbf3de9f5e4U, 0xbe154e6e3e040f32U, 0xbe33aeb03cacde50U, 0x3e121d1ebe1d9930U,
  0xbdfa1eb43de92ad8U, 0xbbcea280be996828U, 0xbe5d571dbe2e1ff1U, 0xbe9d8c43be844176U,
  0xbe675834be81aa87U, 0xbe3eac5d3e142a7aU, 0xbe38f8313a1e730dU, 0x3dd7ab9b3cb363f3U,
  0xbd3caeb93e86f7d2U, 0xbdca4f52bece74caU, 0xbe653b413d5099bdU, 0x3d528511be8fc0b7U,
  0x3e45dba73df95c2fU, 0xbe9626bb3da76f00U, 0xbd6403e93ccd221bU, 0xbe11f932be44149eU,
  0xbe8e78cc3e181848U, 0xbe9937573d2a12ccU, 0xbe9507783e244114U, 0xbe2bdc27bd519f46U,
  0x3e4ea50cbd5df0a6U, 0xbe9e19ec3e8ddf95U, 0x3e470b9a3e99534bU, 0x3df7e5bc3e29e116U,
  0xbdf3214abe8ffa83U, 0xbe3a25bfbdcb42f6U, 0xbe4e28c1be9464a9U, 0x3e299d2cbe9fa9eeU,
  0xbe8b0b4abe3c89aaU, 0x3d2c7060be9f336dU, 0xbe21b7553e53eb42U, 0xbe18f1583bae90c0U,
  0xbe9f888a3e4d3cb2U, 0x3de41364be4089b1U, 0xbe9d8fd2be8d81dbU, 0x3e9a5043be693050U,
  0xbe377d4d3e5f7b0fU, 0xbe80c8cabe1b96edU, 0x3e235bf53c8065c0U, 0xbe4af1793eae0c1cU,
  0xbdf0d2f6be5b29dfU, 0x3e44d9bc3e47047eU, 0xbe0176f7bdba17bdU, 0x3e2539b03e283059U,
  0x3e421b95bd96231cU, 0x3e4eeb4abd9a81b2U, 0x3cb5e83bbe9069baU, 0x3cbecdcbbe3b533cU,
  0xbe4e48a73e8ad3adU, 0xbe08b1963e5b4ddeU, 0xbebf15e73e8a22a7U, 0x3d9960183e9549faU,
  0x3e12b63f3e9875d3U, 0xbe5c5a433e58d1cdU, 0xbe8d5f6f3d6262a1U, 0xbda40b5fbe43d28bU,
  0x3e477ed4be466b5fU, 0x3c8a0c95bd35c870U, 0x3c35ece33de7e5f8U, 0xbe38ef17be04d5a7U,
  0x3e93116c3e63b4b4U, 0x3cdbd5d4be839e27U, 0xbd262ac7bd27971bU, 0xbd04e68d3d9289fbU,
  0xbe9aa4b3be116c22U, 0x3daec298be85d3c0U, 0xbc0b101bbd075b25U, 0x0U,
  0xbd1dbbbaU, 0xbca32654bbfe3a3cU, 0x0U, 0x0U,
  0xbdac67ca00000000U, 0xbbea80f2U, 0x3b660478U, 0x0U,
  0xbda098d7U, 0xbd2381e100000000U, 0xbc5058d8U, 0xbca801c1U,
  0xbbaf2425bd33b29aU, 0x3e04f1e83e8b81dfU, 0x3e917b42be5edda5U, 0xbe28076bbe91042bU,
  0xbe7b90d73e943a66U, 0x3e01d6e0bdd2067eU, 0x3ea833e03e406d4cU, 0xbe50706e3e842132U,
  0xbe8f3e223e9a6ae6U, 0x3d4723a0be86492cU, 0xbc95f1603e865a18U, 0x3b9c2e003e2c0d00U,
  0x3ddf6f493eae40a2U, 0xbe501b1c3da8a798U, 0xbe96efbfbeaab949U, 0xbdabd4eb3e0fa509U,
  0xbe78cc0bbdabb8d8U, 0xbe5d33c1be9bcc18U, 0xbe252f7a3c0291f6U, 0x3deb3bd13caad98bU,
  0xbe232c1bbd8005bcU, 0xbe0e8a8b3e91f4e8U, 0xbe7e96763e5b5398U, 0xbbf7d680beb2cca1U,
  0x3e0e0878be768731U, 0xbe31b1bd3ea7f11aU, 0xbde4b6f03e429a7fU, 0x3e123c953ddf0930U,
  0x3e788dd0bdb926faU, 0xbe940df0be731228U, 0xbde175e93dc27051U, 0x3ea488ed3e7f74ffU,
  0xbd791748bde0b60aU, 0x3d748b28be857d31U, 0xbd56c939be963b80U, 0x3dea48d0bd3061f8U,
  0x3ded970cbe044253U, 0x3e90ac28be5cf65aU, 0x3e56fd1c3e425108U, 0x3e1486163e008f61U,
  0xbe5c01553e12dcc8U, 0xbea6ebb23d70be44U, 0x3e882b023e9f2b18U, 0x3e2674303e2523dcU,
  0x3ea842f8bdaf0f23U, 0x3e42ee3cbe79caa1U, 0xbe85d8a43eab712bU, 0xbe6e11cdbeaff29cU,
  0x3bf30740bdeec325U, 0x3e8e889c3dd8e98bU, 0xbd459c003e9d93e8U, 0x3d6d03a8be01797fU,
  0xbe2d162a3d261678U, 0x3bcaed00bea36e72U, 0xbc3d33c03e3439b0U, 0x3e9d4dbcbd0516e8U,
  0x3e85911c3ea663f3U, 0x3e5eb829bd556ea8U, 0xbeb05615be86fd9cU, 0x3e7015103e7b59dbU,
  0xbd6f00c03ea19506U, 0x3e4d9b88bea71089U, 0x3e0ba90e3e91c32cU, 0xbe3097e9bd800c32U,
  0xbd77302bbdb6b6b8U, 0x3e17a5c0bda5ec40U, 0x3e4a68a4be01ad86U, 0x3e538c39be887e14U,
  0xbdeb25fc3e96e1efU, 0xbd4d11d8bd476b45U, 0xbeadae5cbe81fc3cU, 0xbda4bee0bce06a01U,
  0xbe96117d3ea9da16U, 0x3dbcb82cbd9c282aU, 0xbe667731bc0acbafU, 0x3e8a42cd3dc574a2U,
  0xbe17e6e1be8bdd12U, 0xbe68cbabbe3c9af9U, 0xbe65641f3e747ee8U, 0xbe9fe4ab3c6a487dU,
  0xbe9831f1be61156fU, 0xbdcbc5783e706664U, 0xbe2bb04e3e87a494U, 0x3e5f6b603eaec6dbU,
  0xbe4f8435be75de09U, 0x3d63a5b8be1648aeU, 0x3e95b9bc3e439f1aU, 0x3e6af590be90f6a9U,
  0xbe3090c4be38b41bU, 0x3e0118e0bd0dd71bU, 0xbda9ea28be7c17cdU, 0x3e09a690bd4b13a9U,
  0x3dc3a724be0a2a67U, 0x3e3ef8dc3e38f863U, 0x3e5211cd3e4804d6U, 0xbe712d4abe9ea75eU,
  0xbe29a76fbe5b7233U, 0x3e8e0f373e7d758cU, 0xbe0f12bfbe4d7787U, 0xbe6820743e5346e1U,
  0x3e43b17c3ea7bb50U, 0xbeafc5063d5d09a5U, 0x3e16b7273d0b0950U, 0xbccac2f03d85d939U,
  0xbdb149e0beb0c32cU, 0x3e5af1e93daaafdfU, 0x3e4dfa40bd7f5391U, 0xbdcca1503e584490U,
  0x3ea3b09c3e4782abU, 0x3e29240c3df396fcU, 0xbd9f716cbe48f8f2U, 0xbdaddb34bdf67022U,
  0xbe081d5cbe8c3c24U, 0xbd8ccd10be27e8a8U, 0xbe196b24be77fbd4U, 0x3dedb9f0be2681dbU,
  0xbe8d4b80be567b21U, 0x3e9222aa3ea7bd16U, 0xbea860353e8083b5U, 0x3e1586febd54de15U,
  0x3e5708ac3d8cfc5bU, 0x3e18c4e33eb41b43U, 0x3e70aa64be3677c4U, 0xbe95a050bcc90e3aU,
  0xbe8d4b3dbead62b7U, 0x3e58c248bd94ed34U, 0x3ea37ee8bd17a340U, 0x3ddf9dd2bdb2f15cU,
  0x3de4dea43c98538aU, 0xbd4e0ac03e86e458U, 0x3eac51023e9e49c6U, 0xbeabcfa23dbcf903U,
  0xbe18cf77be996f09U, 0xbe48fd14bd83c426U, 0xbeb0a7ff3ddd7edfU, 0xbdb3f04e3e16c570U,
  0xbd9903acbe75669eU, 0xbe36f8b2be1ba6e9U, 0x3bf8bd00be8ebef7U, 0x3e4c21c9bdc902b6U,
  0xbd6b48c0be9829e0U, 0xbce6e5b03d3b0318U, 0x3d89189dbeaaf6e9U, 0x3e4013ccbdb61e45U,
  0xbe3beb203d120cb8U, 0x3d56a5103d938fb8U, 0xbcc3ff403cfe5f1cU, 0x3c8c48e5be43bfb7U,
  0xbd952ae03e6a08c2U, 0xbe43257f3b8ad780U, 0xbdaa52343c9e61c8U, 0xbdaa49093e8086d1U,
  0xbb0e3100be1bc9b4U, 0x3db9b9d43e2de47eU, 0xbe8a82173dc666eaU, 0x3e9b1758bdfa3a8eU,
  0xbdc9e762be21207cU, 0xbe1deaaabe9c5340U, 0xbc359e20be2daaafU, 0x3e8f4498bebede09U,
  0xbe28dd4dbcce42c0U, 0xbe5dfb393e5e9a8aU, 0xbe0986c03e723a3cU, 0xbe92c1f5bd4450ccU,
  0x3db571943e4eab79U, 0x3e9ba260bcd982b1U, 0xbd1217b1be7eeeecU, 0xbc7708a0be9ce2afU,
  0x3e99eef83e413ba1U, 0x3e3934a73e2fad7bU, 0xbd29db383e63ab44U, 0x3e5c4fbcbdf9fd54U,
  0x3df4741dbd6bdd60U, 0xbde0b2d63d58fbf4U, 0xbd2644483d2bd513U, 0xbe9ca6f1be8cbed0U,
  0x3e946cecbd4e7618U, 0xbe30c6d33d952d2cU, 0xbbcafd00be72fd95U, 0x3eaae77ebe87c13eU,
  0x3dfdf330bc97eac0U, 0xbe678456be608facU, 0x3e8f1fd6bd4d1568U, 0xbeafc4073eb94084U,
  0x3e2196a1bc3903d8U, 0xbe743472bd376960U, 0x3e9ef4c23d4817a8U, 0x3e9ef2083e1274a4U,
  0x3df64fe0be6edc73U, 0xbe81fdd4beb1e6d5U, 0x3eafaf963ea4c89aU, 0xbeadd4f4be28141eU,
  0x3b583fb2be47ae78U, 0xbe5762d73ea8cb87U, 0x3d9464283d831fc1U, 0xbdc333663e99d8b5U,
  0xba0380f93cd3a77bU, 0x3cd57f303e37a154U, 0xbe827345bdb72949U, 0xbea697b4be92b9e8U,
  0x3b7b7600bead01b2U, 0xbe5cccb3be532eceU, 0xbdb3894cbdca47e6U, 0xbe2c724b3ea1963fU,
  0x3e84a1aabe4839e7U, 0x3e3b9250beb000e3U, 0xbe9290553e963a1fU, 0xbd95886ebea0a48cU,
  0x3eabee4cbc70b695U, 0x3e1dca483ea479b7U, 0x3e959c7d3d1e0befU, 0x3d4995c03e893c01U,
  0x3ca2ae503e85d0e6U, 0x3d7be5d0bd217a96U, 0x3e8c47bebddd8eb0U, 0xbdc27d443e3c7b10U,
  0xbe1b0b4fbc8a9c00U, 0x3dabe85a39827800U, 0x3e92e3503e554f47U, 0xbe0539883db2352eU,
  0x3dfcbcd83e9b86aaU, 0x3e320a08be8a4ff9U, 0x3dd076383e27a1d4U, 0x3e38bd4c3ea9f7a9U,
  0x3d39a960be4d69b3U, 0xbe36969f3e8688f9U, 0xbeadc018be2d9074U, 0x3e763e70be82204bU,
  0xbe9bbf3c3d2ce388U, 0xbdad95ec3e6de324U, 0xbea041a6be4f6f77U, 0xbc3a6ce03d613b30U,
  0xbe68f063beaa78edU, 0x3d3df6483daec5a4U, 0x3e44890cbd09b707U, 0xbe9a2e3ebe69119fU,
  0x3e4483443c87d5e4U, 0xbe36cca1be845264U, 0x3e5bafc83da06684U, 0x3e4d68c83cbc4f53U,
  0x3e23a2bcbe302660U, 0xbe2b52c63ead14b3U, 0xbe832000be3dd4ddU, 0xbe8d2674bce869d2U,
  0xbea0a1d6be380023U, 0x3ea71dbabe463adcU, 0xbd9974b03e30e530U, 0x3e3cd91cbe88bfc2U,
  0x3b2268003e4fb7ddU, 0xbdc600783cc6d346U, 0x3c0035a03e611110U, 0x3e4dee9cbe8a3439U,
  0xbeb176a9be72068eU, 0x3e6141243e5a6b6dU, 0xbd5b9ad03d963c1dU, 0xbda90b793dc63fc4U,
  0x3e5edb50be12c5adU, 0x3ea5d8a23e404a50U, 0xbe874788bd9e2be5U, 0xbe1e2c163ea87574U,
  0x3ea2db0ebdd106e2U, 0x3e5b45803dbf2a88U, 0x3d63c0e03e6b4fb4U, 0xbe19596ebe6800fdU,
  0x3ea02e143e80fe4aU, 0xbe6852673d05dea0U, 0x3e014ed8bed32684U, 0x3dd102cabe7a141aU,
  0x3cb76b303de990caU, 0x3ea7878e3e106923U, 0xbe93537b3da53458U, 0x3e6c54dc3ea1e92cU,
  0xbe05fabebe9c2af5U, 0x3e850c52be5aaa2fU, 0x3cda43323e60d220U, 0x3e49a9ecbe96159bU,
  0x3ddfdfec3d955b8cU, 0x3d2fa60bbe00069aU, 0xbeac22b8be1b78d8U, 0xbe02f305be9ae550U,
  0xbdb67928be2d31a4U, 0xbe831958bd4aaef6U, 0xbe18c11ebd4ec560U, 0x3e2b67883e9db438U,
  0x3e85bf743e58a65fU, 0x3e58d0343afa0cc3U, 0x3e5b98d83e5f738eU, 0xbe2c3efb3e2a2b74U,
  0xbd1de9a03af12e05U, 0x3ea2e2a1bdb5cfb1U, 0xbe73c90abe94fb48U, 0xbeade651be455bc5U,
  0xbe3bc322be517ae4U, 0x3e133c5a3db48b4cU, 0xbd60a4f0bea21824U, 0x3daccbec3d2a24a8U,
  0xbdeef074bd295702U, 0x3dbd923abd2734b0U, 0xbd590a88be5522deU, 0x3db833003e184b0eU,
  0x3cd17020be77eeceU, 0xbd0a078abd19a458U, 0x3decd4123e21d538U, 0x3d965b783de802f4U,
  0xbaef00463dcb485bU, 0xbdbe7b0abd32bb82U, 0xbcad3691bdb869d2U, 0xbd4ed78fbbdaa471U,
  0xbd6246033da90e8fU, 0x38d03142bc6cba24U, 0xbd321326bd25b7f2U, 0xbdc7cf653e081ab6U,
  0x3e41a61abd4f42caU, 0x3dc87eff3e80cdeaU, 0xbdf5bf09be8cb0b6U, 0x3ebbc6323ef59145U,
  0x3e8013a3bd761d17U, 0x3ee2e5e0be1e1e61U, 0x3ec6835e3eaae3e2U, 0xbeb3ba47be4154caU,
  0x3ee7c3d93d70683bU, 0xbeb669303e1e824fU, 0x3ef1f18c3eeef86aU, 0x3e8e51593eedc330U,
  0xbe6b75acbe44ed9bU, 0xbd4cc4b13eb33e79U, 0x3ee1f216be07adc5U, 0xbe9b297fbe62f0c0U,
  0xbe9da2573ed9c5daU, 0xbefe71cebec5e183U, 0x3e18e38dbef6c4cbU, 0x3de3f514bde3f513U,
};



AI_API_DECLARE_BEGIN

/*!
 * @brief Get network weights array pointer as a handle ptr.
 * @ingroup network_data
 * @return a ai_handle pointer to the weights array
 */
AI_DEPRECATED
AI_API_ENTRY
ai_handle ai_network_data_weights_get(void)
{
  static const ai_u8* const s_network_weights_map[1 + 2] = {
    AI_PTR(AI_MAGIC_MARKER),
    AI_PTR(s_network_weights_array_u64),
    AI_PTR(AI_MAGIC_MARKER)
  };

  return AI_HANDLE_PTR(s_network_weights_map);

}


/*!
 * @brief Get network params configuration data structure.
 * @ingroup network_data
 * @return true if a valid configuration is present, false otherwise
 */
AI_API_ENTRY
ai_bool ai_network_data_params_get(ai_handle network, ai_network_params* params)
{
  if (!(network && params)) return false;
  
  static ai_buffer s_network_data_map_activations[AI_NETWORK_DATA_ACTIVATIONS_COUNT] = {
    AI_BUFFER_OBJ_INIT(AI_BUFFER_FORMAT_U8, 1, 1, AI_NETWORK_DATA_ACTIVATIONS_SIZE, 1, NULL)
  };

  const ai_buffer_array map_activations = 
    AI_BUFFER_ARRAY_OBJ_INIT(AI_FLAG_NONE, AI_NETWORK_DATA_ACTIVATIONS_COUNT, s_network_data_map_activations);
  
  static ai_buffer s_network_data_map_weights[AI_NETWORK_DATA_WEIGHTS_COUNT] = {
    AI_BUFFER_OBJ_INIT(AI_BUFFER_FORMAT_U8, 1, 1, 6368, 1, s_network_weights_array_u64),
    
  };

  const ai_buffer_array map_weights = 
    AI_BUFFER_ARRAY_OBJ_INIT(AI_FLAG_NONE, AI_NETWORK_DATA_WEIGHTS_COUNT, s_network_data_map_weights);

  return ai_platform_bind_network_params(network, params, &map_weights, &map_activations);
}


AI_API_DECLARE_END
